const unsigned char sine_model[] = {
  0x1c, 0x00, 0x00, 0x00, 0x54, 0x46, 0x4c, 0x33, 0x14, 0x00, 0x20, 0x00,
  0x1c, 0x00, 0x18, 0x00, 0x14, 0x00, 0x10, 0x00, 0x0c, 0x00, 0x00, 0x00,
  0x08, 0x00, 0x04, 0x00, 0x14, 0x00, 0x00, 0x00, 0x1c, 0x00, 0x00, 0x00,
  0x98, 0x00, 0x00, 0x00, 0xf0, 0x00, 0x00, 0x00, 0x14, 0x07, 0x00, 0x00,
  0x24, 0x07, 0x00, 0x00, 0x08, 0x0c, 0x00, 0x00, 0x03, 0x00, 0x00, 0x00,
  0x01, 0x00, 0x00, 0x00, 0x10, 0x00, 0x00, 0x00, 0x00, 0x00, 0x0a, 0x00,
  0x10, 0x00, 0x0c, 0x00, 0x08, 0x00, 0x04, 0x00, 0x0a, 0x00, 0x00, 0x00,
  0x0c, 0x00, 0x00, 0x00, 0x1c, 0x00, 0x00, 0x00, 0x3c, 0x00, 0x00, 0x00,
  0x0f, 0x00, 0x00, 0x00, 0x73, 0x65, 0x72, 0x76, 0x69, 0x6e, 0x67, 0x5f,
  0x64, 0x65, 0x66, 0x61, 0x75, 0x6c, 0x74, 0x00, 0x01, 0x00, 0x00, 0x00,
  0x04, 0x00, 0x00, 0x00, 0x90, 0xff, 0xff, 0xff, 0x09, 0x00, 0x00, 0x00,
  0x04, 0x00, 0x00, 0x00, 0x08, 0x00, 0x00, 0x00, 0x6f, 0x75, 0x74, 0x70,
  0x75, 0x74, 0x5f, 0x30, 0x00, 0x00, 0x00, 0x00, 0x01, 0x00, 0x00, 0x00,
  0x04, 0x00, 0x00, 0x00, 0xba, 0xf9, 0xff, 0xff, 0x04, 0x00, 0x00, 0x00,
  0x0c, 0x00, 0x00, 0x00, 0x6b, 0x65, 0x72, 0x61, 0x73, 0x5f, 0x74, 0x65,
  0x6e, 0x73, 0x6f, 0x72, 0x00, 0x00, 0x00, 0x00, 0x02, 0x00, 0x00, 0x00,
  0x34, 0x00, 0x00, 0x00, 0x04, 0x00, 0x00, 0x00, 0xdc, 0xff, 0xff, 0xff,
  0x0c, 0x00, 0x00, 0x00, 0x04, 0x00, 0x00, 0x00, 0x13, 0x00, 0x00, 0x00,
  0x43, 0x4f, 0x4e, 0x56, 0x45, 0x52, 0x53, 0x49, 0x4f, 0x4e, 0x5f, 0x4d,
  0x45, 0x54, 0x41, 0x44, 0x41, 0x54, 0x41, 0x00, 0x08, 0x00, 0x0c, 0x00,
  0x08, 0x00, 0x04, 0x00, 0x08, 0x00, 0x00, 0x00, 0x0b, 0x00, 0x00, 0x00,
  0x04, 0x00, 0x00, 0x00, 0x13, 0x00, 0x00, 0x00, 0x6d, 0x69, 0x6e, 0x5f,
  0x72, 0x75, 0x6e, 0x74, 0x69, 0x6d, 0x65, 0x5f, 0x76, 0x65, 0x72, 0x73,
  0x69, 0x6f, 0x6e, 0x00, 0x0d, 0x00, 0x00, 0x00, 0x20, 0x06, 0x00, 0x00,
  0x18, 0x06, 0x00, 0x00, 0xc8, 0x05, 0x00, 0x00, 0xac, 0x05, 0x00, 0x00,
  0x5c, 0x05, 0x00, 0x00, 0x4c, 0x01, 0x00, 0x00, 0xfc, 0x00, 0x00, 0x00,
  0xac, 0x00, 0x00, 0x00, 0xa4, 0x00, 0x00, 0x00, 0x9c, 0x00, 0x00, 0x00,
  0x94, 0x00, 0x00, 0x00, 0x74, 0x00, 0x00, 0x00, 0x04, 0x00, 0x00, 0x00,
  0x6a, 0xfa, 0xff, 0xff, 0x04, 0x00, 0x00, 0x00, 0x60, 0x00, 0x00, 0x00,
  0x0c, 0x00, 0x00, 0x00, 0x08, 0x00, 0x0e, 0x00, 0x08, 0x00, 0x04, 0x00,
  0x08, 0x00, 0x00, 0x00, 0x10, 0x00, 0x00, 0x00, 0x28, 0x00, 0x00, 0x00,
  0x00, 0x00, 0x06, 0x00, 0x08, 0x00, 0x04, 0x00, 0x06, 0x00, 0x00, 0x00,
  0x04, 0x00, 0x00, 0x00, 0x01, 0x00, 0x00, 0x00, 0xea, 0x03, 0x00, 0x00,
  0x0c, 0x00, 0x18, 0x00, 0x14, 0x00, 0x10, 0x00, 0x0c, 0x00, 0x04, 0x00,
  0x0c, 0x00, 0x00, 0x00, 0x07, 0xfb, 0xf7, 0xe3, 0x6d, 0xe7, 0x01, 0x38,
  0x02, 0x00, 0x00, 0x00, 0x02, 0x00, 0x00, 0x00, 0x04, 0x00, 0x00, 0x00,
  0x06, 0x00, 0x00, 0x00, 0x32, 0x2e, 0x32, 0x30, 0x2e, 0x30, 0x00, 0x00,
  0xd6, 0xfa, 0xff, 0xff, 0x04, 0x00, 0x00, 0x00, 0x10, 0x00, 0x00, 0x00,
  0x31, 0x2e, 0x35, 0x2e, 0x30, 0x00, 0x00, 0x00, 0x00, 0x00, 0x00, 0x00,
  0x00, 0x00, 0x00, 0x00, 0xd4, 0xf5, 0xff, 0xff, 0xd8, 0xf5, 0xff, 0xff,
  0xdc, 0xf5, 0xff, 0xff, 0xfe, 0xfa, 0xff, 0xff, 0x04, 0x00, 0x00, 0x00,
  0x40, 0x00, 0x00, 0x00, 0x00, 0x00, 0x00, 0x00, 0xd9, 0xb6, 0x34, 0x3e,
  0x00, 0x00, 0x00, 0x00, 0x00, 0x00, 0x00, 0x00, 0xc0, 0xdc, 0x2b, 0xbf,
  0x00, 0x00, 0x00, 0x00, 0x00, 0x00, 0x00, 0x00, 0x00, 0x00, 0x00, 0x00,
  0x00, 0x00, 0x00, 0x00, 0x00, 0x00, 0x00, 0x00, 0x00, 0x00, 0x00, 0x00,
  0x11, 0x16, 0x0d, 0x3f, 0x2f, 0x32, 0xb3, 0x3f, 0xd7, 0xe2, 0x12, 0x3e,
  0x00, 0x00, 0x00, 0x00, 0x00, 0x00, 0x00, 0x00, 0x4a, 0xfb, 0xff, 0xff,
  0x04, 0x00, 0x00, 0x00, 0x40, 0x00, 0x00, 0x00, 0xa4, 0x35, 0x65, 0xbe,
  0x9d, 0xf8, 0xf3, 0x3d, 0x76, 0xc6, 0x16, 0xbf, 0xa9, 0x91, 0x04, 0xbf,
  0x43, 0xf0, 0x24, 0x3f, 0xf0, 0x8e, 0x46, 0xbd, 0xa6, 0x0a, 0xbf, 0xbe,
  0x4c, 0xd2, 0x16, 0xbf, 0xe6, 0x94, 0x8d, 0xbe, 0x40, 0x1d, 0x87, 0xbd,
  0x28, 0xc8, 0x96, 0xbd, 0x9f, 0xa4, 0x2b, 0xbc, 0x5d, 0xde, 0x0d, 0xbe,
  0x47, 0x08, 0x00, 0x3f, 0x6e, 0x14, 0x4b, 0xbe, 0x0d, 0xec, 0xa0, 0xbe,
  0x96, 0xfb, 0xff, 0xff, 0x04, 0x00, 0x00, 0x00, 0x00, 0x04, 0x00, 0x00,
  0x16, 0x5e, 0x52, 0xbe, 0x4e, 0x50, 0xf0, 0x3d, 0xe0, 0x07, 0x77, 0xbd,
  0x18, 0x60, 0x54, 0xbd, 0x07, 0x4a, 0x42, 0x3e, 0xa3, 0x08, 0xb4, 0x3e,
  0xe7, 0xbc, 0xb3, 0xbe, 0xf6, 0xea, 0xba, 0xbe, 0xd9, 0xd1, 0x8f, 0x3e,
  0xd2, 0x3a, 0x42, 0xbe, 0xcf, 0xb9, 0x80, 0x3e, 0xeb, 0x85, 0x8c, 0xbe,
  0xf5, 0xae, 0xe5, 0xbd, 0x27, 0x08, 0x7e, 0x3e, 0xd6, 0x00, 0xd9, 0xbe,
  0x18, 0x1a, 0x62, 0xbd, 0xf7, 0x74, 0xa8, 0x3e, 0x14, 0x12, 0x96, 0xbe,
  0xbd, 0x8c, 0x59, 0xbe, 0x2e, 0x13, 0x58, 0xbe, 0xf3, 0x46, 0x6c, 0xbe,
  0x46, 0x48, 0x3b, 0xbe, 0x52, 0xa7, 0x7c, 0x3e, 0x78, 0xf7, 0xa1, 0xbe,
  0x74, 0x43, 0xad, 0xbe, 0xaf, 0x06, 0x99, 0x3e, 0x93, 0xf0, 0x56, 0xbe,
  0xbc, 0xd1, 0x9e, 0xbd, 0x80, 0xae, 0x33, 0xbd, 0x04, 0x56, 0x98, 0xbe,
  0xb6, 0x61, 0x9e, 0xbe, 0x58, 0x4b, 0xa6, 0xbe, 0xdc, 0xab, 0xa5, 0xbd,
  0x05, 0x3d, 0xb8, 0x3d, 0x00, 0x13, 0xee, 0xba, 0xa6, 0xc5, 0x08, 0xbe,
  0x82, 0xa1, 0xdc, 0xbe, 0xab, 0xd4, 0xbe, 0xbe, 0x1c, 0x86, 0xbe, 0xbd,
  0x28, 0xdb, 0xf2, 0xbd, 0x00, 0x4d, 0x92, 0xbd, 0x24, 0xa6, 0xd2, 0x3d,
  0xa6, 0x15, 0x78, 0x3e, 0x6b, 0xaa, 0xfd, 0x3e, 0x0a, 0xff, 0xeb, 0x3e,
  0xb2, 0x19, 0x5d, 0x3e, 0x04, 0x98, 0x36, 0xbe, 0x20, 0xf9, 0x14, 0x3c,
  0xf8, 0x8e, 0xc1, 0xbe, 0xfe, 0x63, 0xe4, 0x3e, 0x12, 0x6e, 0x1b, 0x3e,
  0x48, 0x10, 0x35, 0x3d, 0x1b, 0xa5, 0xc6, 0x3e, 0x2c, 0xcc, 0xf6, 0xbd,
  0x48, 0xc8, 0x45, 0xbd, 0x42, 0x5d, 0x96, 0xbe, 0x7b, 0xf7, 0xd7, 0xbe,
  0xe4, 0xa9, 0xe3, 0xbd, 0x8e, 0x97, 0x40, 0xbe, 0xb9, 0xa4, 0xf2, 0xbd,
  0xce, 0x57, 0x12, 0x3d, 0x1b, 0x5a, 0x0a, 0x3e, 0xe8, 0xab, 0x04, 0x3d,
  0xa7, 0xa9, 0x9f, 0xbe, 0x80, 0xd4, 0x85, 0x3d, 0x54, 0x24, 0x9e, 0x3b,
  0xd6, 0x66, 0x71, 0x3e, 0x97, 0x30, 0xcc, 0x3e, 0xb6, 0x21, 0xfb, 0xbd,
  0x07, 0x53, 0xc9, 0x3e, 0x43, 0x24, 0xb5, 0x3e, 0xa0, 0x55, 0x3e, 0x3d,
  0x56, 0x4f, 0x84, 0xbe, 0xca, 0x22, 0x7c, 0x3e, 0x4d, 0x65, 0xbe, 0x3e,
  0x34, 0xe5, 0x26, 0x3f, 0x1a, 0x33, 0x0a, 0x3f, 0x33, 0xbe, 0x99, 0xbf,
  0xf8, 0x85, 0xd3, 0xbd, 0xf1, 0xb6, 0xa9, 0x3e, 0xcc, 0x14, 0xc8, 0x3d,
  0xc0, 0xef, 0x1c, 0x3c, 0xd3, 0x99, 0xa0, 0x3e, 0x61, 0xc4, 0x88, 0x3e,
  0x8b, 0x44, 0x9a, 0xbe, 0x8c, 0x89, 0x9a, 0x3d, 0xe2, 0x74, 0x30, 0xbe,
  0x4c, 0xd7, 0xaa, 0x3d, 0xc1, 0x93, 0xae, 0xbe, 0xd4, 0xaa, 0xb6, 0x3d,
  0x1f, 0x48, 0x9e, 0x3e, 0xde, 0x58, 0x45, 0x3e, 0xac, 0xbe, 0xad, 0xbe,
  0x40, 0x39, 0xf5, 0x3b, 0x90, 0xb9, 0xd2, 0x3c, 0x16, 0xd0, 0x4b, 0x3e,
  0x9e, 0x2a, 0x03, 0xbe, 0x94, 0xbc, 0xba, 0x3e, 0xaf, 0x37, 0xae, 0xbe,
  0xba, 0xd0, 0x0b, 0x3e, 0x1b, 0x1a, 0x9e, 0x3a, 0x43, 0xef, 0xa7, 0x3e,
  0xe6, 0xf5, 0x74, 0xbe, 0x22, 0x37, 0x85, 0xbe, 0x94, 0x9a, 0xf8, 0x3d,
  0xfb, 0x59, 0x81, 0x3e, 0x08, 0x24, 0x9b, 0xbd, 0x28, 0xa5, 0xac, 0xbe,
  0x23, 0x45, 0x12, 0x3e, 0xaa, 0x32, 0xed, 0x3d, 0x80, 0x43, 0x31, 0x3b,
  0xd1, 0x09, 0x98, 0x3e, 0xaf, 0x59, 0x80, 0x3e, 0xdf, 0x3d, 0x77, 0xbe,
  0x14, 0x9b, 0xa5, 0x3d, 0xdc, 0x31, 0x88, 0xbd, 0xcf, 0x9d, 0x8f, 0xbe,
  0xc6, 0x14, 0x52, 0x3e, 0x3a, 0xdf, 0x9a, 0xbe, 0x70, 0x26, 0xee, 0x3c,
  0x10, 0x3c, 0x6b, 0x3d, 0xad, 0x96, 0x94, 0xbe, 0x26, 0xbe, 0x13, 0x3e,
  0x80, 0x3b, 0x61, 0xbc, 0xd0, 0xf1, 0xf7, 0xbc, 0x3c, 0x17, 0xb8, 0xbe,
  0x65, 0x62, 0x3e, 0xbe, 0x26, 0xee, 0x20, 0x3e, 0xc5, 0x8e, 0xba, 0xbe,
  0x88, 0x61, 0xcc, 0xbd, 0x2a, 0x4c, 0x8b, 0xbe, 0xb7, 0xfc, 0x5e, 0xbe,
  0x65, 0xe9, 0xff, 0xbe, 0x54, 0xfe, 0x96, 0x3d, 0x1b, 0xc6, 0x96, 0x3e,
  0x60, 0xe3, 0x15, 0xbc, 0x56, 0xf8, 0x08, 0x3e, 0x04, 0x4e, 0x03, 0xbe,
  0xac, 0x2d, 0xc6, 0x3d, 0x2d, 0xe0, 0xc1, 0x3e, 0x4a, 0xb5, 0x69, 0x3f,
  0xd2, 0xb0, 0x8a, 0x3e, 0x3e, 0x44, 0x2b, 0xbe, 0xb7, 0x65, 0x42, 0xbe,
  0x1e, 0xa2, 0x76, 0x3e, 0xd5, 0x6c, 0x98, 0x3e, 0xb0, 0x1d, 0xef, 0xbc,
  0x1f, 0x62, 0x88, 0x3e, 0xce, 0x89, 0x50, 0x3e, 0x12, 0x29, 0x5e, 0x3e,
  0x0d, 0xed, 0xae, 0xbe, 0x7b, 0x8e, 0xbc, 0x3e, 0xd9, 0x14, 0xaf, 0xbe,
  0xcb, 0xe6, 0x44, 0xbe, 0x86, 0x3a, 0x2b, 0x3e, 0x5d, 0xac, 0x47, 0xbe,
  0x94, 0xd7, 0x2a, 0xbe, 0x65, 0x83, 0xae, 0xbe, 0x26, 0x77, 0x63, 0x3e,
  0x6b, 0x71, 0xb2, 0xbe, 0x06, 0x28, 0x2a, 0x3e, 0x36, 0x9e, 0x18, 0x3f,
  0x78, 0xeb, 0xeb, 0xbd, 0xce, 0x4b, 0xbb, 0xbe, 0xe3, 0x0d, 0x71, 0xbf,
  0xe9, 0x41, 0x59, 0xbe, 0xbf, 0x5e, 0x8e, 0xbe, 0xed, 0x4a, 0x89, 0x3e,
  0x0c, 0x77, 0x9d, 0xbe, 0x0a, 0x03, 0x40, 0x3e, 0x3c, 0xe8, 0x2c, 0xbe,
  0x85, 0x9b, 0x55, 0x3f, 0x34, 0x95, 0x70, 0x3f, 0x87, 0xe2, 0x1c, 0xbe,
  0x40, 0xfb, 0x50, 0x3d, 0x5a, 0x0a, 0x5f, 0x3e, 0x74, 0x1f, 0x25, 0xbe,
  0x65, 0x26, 0x62, 0x3e, 0x66, 0x63, 0xbc, 0xbe, 0x92, 0x1c, 0x51, 0x3e,
  0xf6, 0xd6, 0xd6, 0x3d, 0x16, 0xeb, 0x45, 0x3e, 0x50, 0x0d, 0xf2, 0xbd,
  0xf4, 0xb5, 0x2f, 0xbe, 0xa2, 0xa9, 0x3d, 0x3e, 0xe0, 0xf5, 0x3b, 0xbd,
  0x00, 0x22, 0x5c, 0xba, 0xde, 0x60, 0x8c, 0xbd, 0x88, 0xb0, 0xab, 0x3c,
  0x49, 0xe6, 0x82, 0x3e, 0x40, 0x87, 0x75, 0x3c, 0x37, 0x80, 0xa7, 0x3e,
  0x6f, 0x6d, 0x8d, 0x3e, 0xbf, 0x2f, 0xd8, 0x3d, 0xb3, 0x54, 0xd3, 0xbe,
  0xc6, 0x80, 0x88, 0xbe, 0x85, 0xed, 0x4d, 0x3e, 0x7c, 0xc1, 0x9d, 0xbe,
  0x36, 0x0b, 0x5a, 0x3e, 0x2f, 0xcb, 0x80, 0x3e, 0x67, 0x5c, 0xd6, 0x3e,
  0xe0, 0x7a, 0x6d, 0xbd, 0xd0, 0x1b, 0x5b, 0x3d, 0x36, 0xb0, 0xf8, 0x3c,
  0x15, 0x21, 0x0a, 0x3f, 0x2f, 0x57, 0xe2, 0xbd, 0x3e, 0x4d, 0x9a, 0xbe,
  0x0b, 0x40, 0x4c, 0xbe, 0x72, 0xef, 0x1a, 0x3e, 0x38, 0xbd, 0xe2, 0xbe,
  0x1f, 0x99, 0xaa, 0x3e, 0x93, 0x87, 0x69, 0xbe, 0x92, 0x43, 0x13, 0x3e,
  0xbc, 0x35, 0xec, 0xbd, 0x2a, 0xa4, 0xb5, 0xbe, 0xfa, 0xe9, 0xbd, 0xbe,
  0x54, 0x7d, 0xf9, 0x3d, 0xc4, 0x7e, 0xf0, 0xbd, 0x9c, 0x9f, 0xd8, 0x3d,
  0xda, 0x9e, 0x82, 0xbe, 0xf5, 0x71, 0x37, 0x3f, 0xfa, 0x29, 0x0a, 0x3e,
  0xaa, 0xf9, 0x32, 0x3e, 0xfa, 0xb4, 0xd0, 0xbe, 0x2f, 0x3c, 0xdb, 0xbe,
  0x63, 0xad, 0xc9, 0x3e, 0x9a, 0xd3, 0x65, 0xbe, 0x9d, 0x51, 0xb8, 0x3e,
  0x26, 0xce, 0x95, 0xbe, 0x56, 0x97, 0xa8, 0xbe, 0x72, 0x7f, 0x0e, 0x3e,
  0xe4, 0xf1, 0xc5, 0x3d, 0xb0, 0x2e, 0xd7, 0xbd, 0xe8, 0xe3, 0x4c, 0xbd,
  0xe2, 0xc3, 0x71, 0xbe, 0x82, 0x7b, 0xa1, 0xbe, 0x48, 0x4d, 0x17, 0xbe,
  0x28, 0x3d, 0x32, 0x3d, 0x41, 0xd8, 0xd0, 0xbe, 0x54, 0xe4, 0xcc, 0xbe,
  0xda, 0x4e, 0x0a, 0xbe, 0xf1, 0x35, 0x8f, 0x3e, 0x2c, 0x7f, 0xda, 0xbe,
  0x01, 0x8e, 0x94, 0x3e, 0xc4, 0x54, 0x82, 0x3d, 0xba, 0x56, 0xa4, 0xbe,
  0xbf, 0xa6, 0xc2, 0x3e, 0xe2, 0x54, 0x01, 0xbe, 0x7e, 0xad, 0x1e, 0x3e,
  0x66, 0xff, 0x44, 0x3e, 0xf6, 0xb5, 0x87, 0xbe, 0xf4, 0x9f, 0xaa, 0xbe,
  0xf9, 0xe4, 0xd0, 0xbe, 0x82, 0x2c, 0x55, 0xbe, 0xbe, 0x87, 0x24, 0xbe,
  0x0e, 0x63, 0xc3, 0xbe, 0xa2, 0xff, 0xff, 0xff, 0x04, 0x00, 0x00, 0x00,
  0x40, 0x00, 0x00, 0x00, 0xb1, 0xa5, 0xf1, 0xbe, 0xb4, 0xa6, 0xdb, 0x3e,
  0xeb, 0xc9, 0x6b, 0xbf, 0xb6, 0x57, 0xd2, 0x3e, 0x18, 0x3d, 0xaa, 0xbf,
  0x9c, 0x7e, 0xba, 0xbe, 0xf4, 0x57, 0x6b, 0x3d, 0x10, 0x36, 0x8a, 0xbd,
  0xa0, 0x26, 0x2b, 0xbf, 0xc2, 0x6f, 0x8b, 0x3e, 0x46, 0xa8, 0xf4, 0x3f,
  0x80, 0x5b, 0x23, 0x3f, 0x15, 0xa0, 0xf5, 0xbe, 0x78, 0x43, 0x01, 0xbf,
  0x00, 0xf5, 0xcb, 0x3c, 0xef, 0x63, 0xe3, 0xbe, 0xee, 0xff, 0xff, 0xff,
  0x04, 0x00, 0x00, 0x00, 0x04, 0x00, 0x00, 0x00, 0x69, 0x9e, 0x5f, 0xbe,
  0x00, 0x00, 0x06, 0x00, 0x08, 0x00, 0x04, 0x00, 0x06, 0x00, 0x00, 0x00,
  0x04, 0x00, 0x00, 0x00, 0x40, 0x00, 0x00, 0x00, 0xe0, 0xf5, 0x0c, 0x3e,
  0x00, 0x00, 0x00, 0x00, 0xf7, 0x07, 0x80, 0x3e, 0x50, 0xe7, 0xae, 0xbd,
  0xf4, 0x53, 0xea, 0x3e, 0x00, 0x00, 0x00, 0x00, 0x6a, 0xc2, 0xc6, 0xbd,
  0x00, 0x00, 0x00, 0x00, 0xed, 0x6b, 0x87, 0x3e, 0x00, 0x00, 0x00, 0x00,
  0x71, 0x9f, 0x6c, 0x3f, 0x94, 0xbb, 0x8f, 0xbd, 0x48, 0xb5, 0x08, 0x3e,
  0x94, 0xe3, 0x11, 0x3e, 0x00, 0x00, 0x00, 0x00, 0x00, 0x00, 0x00, 0x00,
  0x34, 0xfb, 0xff, 0xff, 0x38, 0xfb, 0xff, 0xff, 0x0f, 0x00, 0x00, 0x00,
  0x4d, 0x4c, 0x49, 0x52, 0x20, 0x43, 0x6f, 0x6e, 0x76, 0x65, 0x72, 0x74,
  0x65, 0x64, 0x2e, 0x00, 0x01, 0x00, 0x00, 0x00, 0x14, 0x00, 0x00, 0x00,
  0x00, 0x00, 0x0e, 0x00, 0x18, 0x00, 0x14, 0x00, 0x10, 0x00, 0x0c, 0x00,
  0x08, 0x00, 0x04, 0x00, 0x0e, 0x00, 0x00, 0x00, 0x14, 0x00, 0x00, 0x00,
  0x1c, 0x00, 0x00, 0x00, 0xe8, 0x00, 0x00, 0x00, 0xec, 0x00, 0x00, 0x00,
  0xf0, 0x00, 0x00, 0x00, 0x04, 0x00, 0x00, 0x00, 0x6d, 0x61, 0x69, 0x6e,
  0x00, 0x00, 0x00, 0x00, 0x03, 0x00, 0x00, 0x00, 0x90, 0x00, 0x00, 0x00,
  0x48, 0x00, 0x00, 0x00, 0x04, 0x00, 0x00, 0x00, 0xce, 0xff, 0xff, 0xff,
  0x10, 0x00, 0x00, 0x00, 0x00, 0x00, 0x00, 0x08, 0x0c, 0x00, 0x00, 0x00,
  0x10, 0x00, 0x00, 0x00, 0xb0, 0xfb, 0xff, 0xff, 0x01, 0x00, 0x00, 0x00,
  0x09, 0x00, 0x00, 0x00, 0x03, 0x00, 0x00, 0x00, 0x08, 0x00, 0x00, 0x00,
  0x03, 0x00, 0x00, 0x00, 0x02, 0x00, 0x00, 0x00, 0x00, 0x00, 0x0e, 0x00,
  0x14, 0x00, 0x00, 0x00, 0x10, 0x00, 0x0c, 0x00, 0x0b, 0x00, 0x04, 0x00,
  0x0e, 0x00, 0x00, 0x00, 0x10, 0x00, 0x00, 0x00, 0x00, 0x00, 0x00, 0x08,
  0x10, 0x00, 0x00, 0x00, 0x14, 0x00, 0x00, 0x00, 0xba, 0xff, 0xff, 0xff,
  0x00, 0x00, 0x00, 0x01, 0x01, 0x00, 0x00, 0x00, 0x08, 0x00, 0x00, 0x00,
  0x03, 0x00, 0x00, 0x00, 0x07, 0x00, 0x00, 0x00, 0x04, 0x00, 0x00, 0x00,
  0x01, 0x00, 0x00, 0x00, 0x00, 0x00, 0x0e, 0x00, 0x16, 0x00, 0x00, 0x00,
  0x10, 0x00, 0x0c, 0x00, 0x0b, 0x00, 0x04, 0x00, 0x0e, 0x00, 0x00, 0x00,
  0x18, 0x00, 0x00, 0x00, 0x00, 0x00, 0x00, 0x08, 0x18, 0x00, 0x00, 0x00,
  0x1c, 0x00, 0x00, 0x00, 0x00, 0x00, 0x06, 0x00, 0x08, 0x00, 0x07, 0x00,
  0x06, 0x00, 0x00, 0x00, 0x00, 0x00, 0x00, 0x01, 0x01, 0x00, 0x00, 0x00,
  0x07, 0x00, 0x00, 0x00, 0x03, 0x00, 0x00, 0x00, 0x00, 0x00, 0x00, 0x00,
  0x05, 0x00, 0x00, 0x00, 0x06, 0x00, 0x00, 0x00, 0x01, 0x00, 0x00, 0x00,
  0x09, 0x00, 0x00, 0x00, 0x01, 0x00, 0x00, 0x00, 0x00, 0x00, 0x00, 0x00,
  0x0a, 0x00, 0x00, 0x00, 0x68, 0x03, 0x00, 0x00, 0x14, 0x03, 0x00, 0x00,
  0xc0, 0x02, 0x00, 0x00, 0x80, 0x02, 0x00, 0x00, 0x40, 0x02, 0x00, 0x00,
  0xf4, 0x01, 0x00, 0x00, 0x90, 0x01, 0x00, 0x00, 0xfc, 0x00, 0x00, 0x00,
  0x60, 0x00, 0x00, 0x00, 0x04, 0x00, 0x00, 0x00, 0xd6, 0xfc, 0xff, 0xff,
  0x00, 0x00, 0x00, 0x01, 0x14, 0x00, 0x00, 0x00, 0x1c, 0x00, 0x00, 0x00,
  0x1c, 0x00, 0x00, 0x00, 0x0a, 0x00, 0x00, 0x00, 0x34, 0x00, 0x00, 0x00,
  0x02, 0x00, 0x00, 0x00, 0xff, 0xff, 0xff, 0xff, 0x01, 0x00, 0x00, 0x00,
  0xc0, 0xfc, 0xff, 0xff, 0x1b, 0x00, 0x00, 0x00, 0x53, 0x74, 0x61, 0x74,
  0x65, 0x66, 0x75, 0x6c, 0x50, 0x61, 0x72, 0x74, 0x69, 0x74, 0x69, 0x6f,
  0x6e, 0x65, 0x64, 0x43, 0x61, 0x6c, 0x6c, 0x5f, 0x31, 0x3a, 0x30, 0x00,
  0x02, 0x00, 0x00, 0x00, 0x01, 0x00, 0x00, 0x00, 0x01, 0x00, 0x00, 0x00,
  0x2e, 0xfd, 0xff, 0xff, 0x00, 0x00, 0x00, 0x01, 0x14, 0x00, 0x00, 0x00,
  0x1c, 0x00, 0x00, 0x00, 0x1c, 0x00, 0x00, 0x00, 0x09, 0x00, 0x00, 0x00,
  0x74, 0x00, 0x00, 0x00, 0x02, 0x00, 0x00, 0x00, 0xff, 0xff, 0xff, 0xff,
  0x10, 0x00, 0x00, 0x00, 0x18, 0xfd, 0xff, 0xff, 0x58, 0x00, 0x00, 0x00,
  0x73, 0x65, 0x71, 0x75, 0x65, 0x6e, 0x74, 0x69, 0x61, 0x6c, 0x5f, 0x31,
  0x2f, 0x64, 0x65, 0x6e, 0x73, 0x65, 0x5f, 0x31, 0x5f, 0x32, 0x2f, 0x4d,
  0x61, 0x74, 0x4d, 0x75, 0x6c, 0x3b, 0x73, 0x65, 0x71, 0x75, 0x65, 0x6e,
  0x74, 0x69, 0x61, 0x6c, 0x5f, 0x31, 0x2f, 0x64, 0x65, 0x6e, 0x73, 0x65,
  0x5f, 0x31, 0x5f, 0x32, 0x2f, 0x52, 0x65, 0x6c, 0x75, 0x3b, 0x73, 0x65,
  0x71, 0x75, 0x65, 0x6e, 0x74, 0x69, 0x61, 0x6c, 0x5f, 0x31, 0x2f, 0x64,
  0x65, 0x6e, 0x73, 0x65, 0x5f, 0x31, 0x5f, 0x32, 0x2f, 0x42, 0x69, 0x61,
  0x73, 0x41, 0x64, 0x64, 0x00, 0x00, 0x00, 0x00, 0x02, 0x00, 0x00, 0x00,
  0x01, 0x00, 0x00, 0x00, 0x10, 0x00, 0x00, 0x00, 0xc6, 0xfd, 0xff, 0xff,
  0x00, 0x00, 0x00, 0x01, 0x14, 0x00, 0x00, 0x00, 0x1c, 0x00, 0x00, 0x00,
  0x1c, 0x00, 0x00, 0x00, 0x08, 0x00, 0x00, 0x00, 0x6c, 0x00, 0x00, 0x00,
  0x02, 0x00, 0x00, 0x00, 0xff, 0xff, 0xff, 0xff, 0x10, 0x00, 0x00, 0x00,
  0xb0, 0xfd, 0xff, 0xff, 0x52, 0x00, 0x00, 0x00, 0x73, 0x65, 0x71, 0x75,
  0x65, 0x6e, 0x74, 0x69, 0x61, 0x6c, 0x5f, 0x31, 0x2f, 0x64, 0x65, 0x6e,
  0x73, 0x65, 0x5f, 0x31, 0x2f, 0x4d, 0x61, 0x74, 0x4d, 0x75, 0x6c, 0x3b,
  0x73, 0x65, 0x71, 0x75, 0x65, 0x6e, 0x74, 0x69, 0x61, 0x6c, 0x5f, 0x31,
  0x2f, 0x64, 0x65, 0x6e, 0x73, 0x65, 0x5f, 0x31, 0x2f, 0x52, 0x65, 0x6c,
  0x75, 0x3b, 0x73, 0x65, 0x71, 0x75, 0x65, 0x6e, 0x74, 0x69, 0x61, 0x6c,
  0x5f, 0x31, 0x2f, 0x64, 0x65, 0x6e, 0x73, 0x65, 0x5f, 0x31, 0x2f, 0x42,
  0x69, 0x61, 0x73, 0x41, 0x64, 0x64, 0x00, 0x00, 0x02, 0x00, 0x00, 0x00,
  0x01, 0x00, 0x00, 0x00, 0x10, 0x00, 0x00, 0x00, 0xa6, 0xfe, 0xff, 0xff,
  0x00, 0x00, 0x00, 0x01, 0x10, 0x00, 0x00, 0x00, 0x10, 0x00, 0x00, 0x00,
  0x07, 0x00, 0x00, 0x00, 0x44, 0x00, 0x00, 0x00, 0x30, 0xfe, 0xff, 0xff,
  0x36, 0x00, 0x00, 0x00, 0x73, 0x65, 0x71, 0x75, 0x65, 0x6e, 0x74, 0x69,
  0x61, 0x6c, 0x5f, 0x31, 0x2f, 0x64, 0x65, 0x6e, 0x73, 0x65, 0x5f, 0x31,
  0x2f, 0x52, 0x65, 0x6c, 0x75, 0x3b, 0x73, 0x65, 0x71, 0x75, 0x65, 0x6e,
  0x74, 0x69, 0x61, 0x6c, 0x5f, 0x31, 0x2f, 0x64, 0x65, 0x6e, 0x73, 0x65,
  0x5f, 0x31, 0x2f, 0x42, 0x69, 0x61, 0x73, 0x41, 0x64, 0x64, 0x00, 0x00,
  0x01, 0x00, 0x00, 0x00, 0x10, 0x00, 0x00, 0x00, 0x06, 0xff, 0xff, 0xff,
  0x00, 0x00, 0x00, 0x01, 0x10, 0x00, 0x00, 0x00, 0x10, 0x00, 0x00, 0x00,
  0x06, 0x00, 0x00, 0x00, 0x28, 0x00, 0x00, 0x00, 0x90, 0xfe, 0xff, 0xff,
  0x1b, 0x00, 0x00, 0x00, 0x73, 0x65, 0x71, 0x75, 0x65, 0x6e, 0x74, 0x69,
  0x61, 0x6c, 0x5f, 0x31, 0x2f, 0x64, 0x65, 0x6e, 0x73, 0x65, 0x5f, 0x31,
  0x2f, 0x4d, 0x61, 0x74, 0x4d, 0x75, 0x6c, 0x00, 0x02, 0x00, 0x00, 0x00,
  0x10, 0x00, 0x00, 0x00, 0x01, 0x00, 0x00, 0x00, 0x4e, 0xff, 0xff, 0xff,
  0x00, 0x00, 0x00, 0x01, 0x10, 0x00, 0x00, 0x00, 0x10, 0x00, 0x00, 0x00,
  0x05, 0x00, 0x00, 0x00, 0x1c, 0x00, 0x00, 0x00, 0xd8, 0xfe, 0xff, 0xff,
  0x0f, 0x00, 0x00, 0x00, 0x61, 0x72, 0x69, 0x74, 0x68, 0x2e, 0x63, 0x6f,
  0x6e, 0x73, 0x74, 0x61, 0x6e, 0x74, 0x33, 0x00, 0x02, 0x00, 0x00, 0x00,
  0x10, 0x00, 0x00, 0x00, 0x10, 0x00, 0x00, 0x00, 0x8a, 0xff, 0xff, 0xff,
  0x00, 0x00, 0x00, 0x01, 0x10, 0x00, 0x00, 0x00, 0x10, 0x00, 0x00, 0x00,
  0x04, 0x00, 0x00, 0x00, 0x1c, 0x00, 0x00, 0x00, 0x14, 0xff, 0xff, 0xff,
  0x0f, 0x00, 0x00, 0x00, 0x61, 0x72, 0x69, 0x74, 0x68, 0x2e, 0x63, 0x6f,
  0x6e, 0x73, 0x74, 0x61, 0x6e, 0x74, 0x32, 0x00, 0x02, 0x00, 0x00, 0x00,
  0x01, 0x00, 0x00, 0x00, 0x10, 0x00, 0x00, 0x00, 0xc6, 0xff, 0xff, 0xff,
  0x00, 0x00, 0x00, 0x01, 0x10, 0x00, 0x00, 0x00, 0x10, 0x00, 0x00, 0x00,
  0x03, 0x00, 0x00, 0x00, 0x1c, 0x00, 0x00, 0x00, 0x50, 0xff, 0xff, 0xff,
  0x0f, 0x00, 0x00, 0x00, 0x61, 0x72, 0x69, 0x74, 0x68, 0x2e, 0x63, 0x6f,
  0x6e, 0x73, 0x74, 0x61, 0x6e, 0x74, 0x31, 0x00, 0x01, 0x00, 0x00, 0x00,
  0x01, 0x00, 0x00, 0x00, 0x00, 0x00, 0x16, 0x00, 0x18, 0x00, 0x14, 0x00,
  0x00, 0x00, 0x10, 0x00, 0x0c, 0x00, 0x08, 0x00, 0x00, 0x00, 0x00, 0x00,
  0x00, 0x00, 0x07, 0x00, 0x16, 0x00, 0x00, 0x00, 0x00, 0x00, 0x00, 0x01,
  0x10, 0x00, 0x00, 0x00, 0x10, 0x00, 0x00, 0x00, 0x02, 0x00, 0x00, 0x00,
  0x1c, 0x00, 0x00, 0x00, 0xa0, 0xff, 0xff, 0xff, 0x0e, 0x00, 0x00, 0x00,
  0x61, 0x72, 0x69, 0x74, 0x68, 0x2e, 0x63, 0x6f, 0x6e, 0x73, 0x74, 0x61,
  0x6e, 0x74, 0x00, 0x00, 0x01, 0x00, 0x00, 0x00, 0x10, 0x00, 0x00, 0x00,
  0x00, 0x00, 0x16, 0x00, 0x1c, 0x00, 0x18, 0x00, 0x00, 0x00, 0x14, 0x00,
  0x10, 0x00, 0x0c, 0x00, 0x00, 0x00, 0x00, 0x00, 0x08, 0x00, 0x07, 0x00,
  0x16, 0x00, 0x00, 0x00, 0x00, 0x00, 0x00, 0x01, 0x14, 0x00, 0x00, 0x00,
  0x20, 0x00, 0x00, 0x00, 0x20, 0x00, 0x00, 0x00, 0x01, 0x00, 0x00, 0x00,
  0x3c, 0x00, 0x00, 0x00, 0x02, 0x00, 0x00, 0x00, 0xff, 0xff, 0xff, 0xff,
  0x01, 0x00, 0x00, 0x00, 0x04, 0x00, 0x04, 0x00, 0x04, 0x00, 0x00, 0x00,
  0x1e, 0x00, 0x00, 0x00, 0x73, 0x65, 0x72, 0x76, 0x69, 0x6e, 0x67, 0x5f,
  0x64, 0x65, 0x66, 0x61, 0x75, 0x6c, 0x74, 0x5f, 0x6b, 0x65, 0x72, 0x61,
  0x73, 0x5f, 0x74, 0x65, 0x6e, 0x73, 0x6f, 0x72, 0x3a, 0x30, 0x00, 0x00,
  0x02, 0x00, 0x00, 0x00, 0x01, 0x00, 0x00, 0x00, 0x01, 0x00, 0x00, 0x00,
  0x01, 0x00, 0x00, 0x00, 0x10, 0x00, 0x00, 0x00, 0x0c, 0x00, 0x0c, 0x00,
  0x0b, 0x00, 0x00, 0x00, 0x00, 0x00, 0x04, 0x00, 0x0c, 0x00, 0x00, 0x00,
  0x09, 0x00, 0x00, 0x00, 0x00, 0x00, 0x00, 0x09
};
const unsigned int sine_model_len = 3164;
